<unk>	0
<s>	0
</s>	0
▁de	-3.20237
▁la	-3.8646
▁que	-3.8944
▁en	-3.93815
▁el	-4.02977
▁a	-4.06288
▁y	-4.12276
▁:D	-4.19187
▁un	-4.65194
▁para	-4.79367
▁no	-4.79794
▁los	-4.80103
▁es	-4.80671
▁con	-4.85502
▁del	-4.95223
▁por	-5.09965
▁las	-5.15682
▁se	-5.19301
▁me	-5.1953
▁lo	-5.27371
▁una	-5.32836
▁-	-5.36241
▁te	-5.40516
▁juego	-5.51641
▁El	-5.54817
▁:P	-5.55253
▁al	-5.59114
▁mi	-5.77331
▁más	-5.83899
▁:p	-5.86553
▁La	-5.87253
▁si	-5.99
▁tu	-6.03972
▁ya	-6.06372
▁como	-6.08706
▁pero	-6.17537
▁ha	-6.2099
▁su	-6.22406
▁No	-6.32287
▁vía	-6.38872
▁este	-6.44222
▁@YouTube	-6.444
▁o	-6.49035
▁Me	-6.50158
▁yo	-6.58084
▁Y	-6.63524
▁esta	-6.6515
▁|	-6.65479
▁Los	-6.67808
▁A	-6.69849
▁todo	-6.70654
▁son	-6.71117
▁le	-6.71233
▁:	-6.71933
▁mejor	-6.72519
▁está	-6.72991
▁nuevo	-6.74299
▁ser	-6.76356
▁hay	-6.76601
▁qué	-6.76847
▁En	-6.77834
▁cuando	-6.78207
▁nos	-6.80985
▁Que	-6.84902
▁PC	-6.85035
▁sobre	-6.87192
▁Un	-6.8815
▁tiene	-6.88564
▁sin	-6.90235
▁muy	-6.90657
▁todos	-6.91935
▁ver	-6.94393
▁Si	-6.97516
▁día	-6.97516
▁hacer	-6.97516
▁gracias	-6.98122
▁tengo	-7.00118
▁porque	-7.03267
▁mas	-7.04556
▁Ya	-7.06355
▁va	-7.06851
▁q	-7.07183
▁Las	-7.08861
▁sus	-7.0937
▁Google	-7.10912
▁hoy	-7.12129
▁eso	-7.1283
▁voy	-7.13007
▁ahora	-7.13183
▁hace	-7.13537
▁PP	-7.16415
▁bien	-7.16415
▁puede	-7.18629
▁Android	-7.19566
▁xD	-7.20323
▁desde	-7.21084
▁solo	-7.21468
▁Hoy	-7.21852
▁he	-7.2321
▁Este	-7.25183
▁ni	-7.25183
▁España	-7.26385
▁años	-7.29456
▁han	-7.31133
▁@sanchezcastejon	-7.31982
▁Gracias	-7.31982
▁Es	-7.32196
▁hasta	-7.32196
▁Más	-7.33054
▁gente	-7.3327
▁Lo	-7.33703
▁estoy	-7.33703
▁mucho	-7.34138
▁pc	-7.35013
▁vez	-7.35453
▁también	-7.36787
▁mañana	-7.40897
▁Por	-7.42542
▁Minecraft	-7.42779
▁vida	-7.42779
▁mis	-7.43495
▁Yo	-7.46407
▁quiero	-7.46407
▁Apple	-7.46654
▁menos	-7.47397
▁DE	-7.48147
▁nuestro	-7.49408
▁...	-7.49916
▁jajaja	-7.50172
▁nada	-7.512
▁uno	-7.512
▁tan	-7.51718
▁Se	-7.53026
▁siempre	-7.53026
▁entre	-7.53553
▁3	-7.5435
▁@UAM_Madrid	-7.5435
▁,	-7.54617
▁2	-7.54617
▁algo	-7.55963
▁días	-7.56779
▁dos	-7.57327
▁contra	-7.57602
▁RT	-7.58989
▁EL	-7.5955
▁vídeo	-7.6068
▁soy	-7.60964
▁De	-7.61822
▁Mi	-7.6211
▁Una	-7.62399
▁@microsiervos	-7.64148
▁Juego	-7.64148
▁semana	-7.65332
▁10	-7.65929
▁Hola	-7.66529
▁video	-7.66529
▁tus	-7.67437
▁puedes	-7.67741
▁Te	-7.68047
▁"El	-7.6866
▁5	-7.68968
▁jugar	-7.69588
▁—	-7.69899
▁bueno	-7.70524
▁mundo	-7.70524
▁directo	-7.71152
▁:(	-7.71468
▁les	-7.71468
▁así	-7.73063
▁&lt;3	-7.73709
▁@marianorajoy	-7.74033
▁mal	-7.74033
▁tener	-7.74358
▁donde	-7.74684
▁espero	-7.75011
▁personalizado	-7.75011
▁tiempo	-7.7534
▁cosas	-7.75669
▁dia	-7.76
▁poco	-7.76
▁jaja	-7.76664
▁.	-7.77333
▁Cómo	-7.77333
▁ese	-7.77333
▁nueva	-7.77333
▁era	-7.77669
▁perfecto	-7.78007
▁cambio	-7.78345
▁Con	-7.78685
▁aquí	-7.79025
▁¿Qué	-7.79025
▁Madrid	-7.80055
▁¿Por	-7.80055
▁4	-7.804
▁mismo	-7.804
▁da	-7.80747
▁ir	-7.80747
▁eres	-7.81443
▁estar	-7.81443
▁fue	-7.81443
▁año	-7.81794
▁están	-7.82145
▁Esta	-7.82498
▁Así	-7.83564
▁gusta	-7.83921
▁nuestra	-7.83921
▁canal	-7.84281
▁Cuando	-7.86095
▁#UAM	-7.86462
▁Ahora	-7.86462
▁fans	-7.86462
▁PSOE	-7.86831
▁"La	-7.872
▁quiere	-7.87572
▁noche	-7.88318
▁esto	-7.88693
▁antes	-7.8907
▁cómo	-7.8907
▁dice	-7.8907
▁e	-7.89448
▁nunca	-7.89448
▁cada	-7.90208
▁Seguridad	-7.90591
▁personas	-7.90591
▁primer	-7.9136
▁sea	-7.9136
▁sido	-7.92135
▁!	-7.92525
▁24h:	-7.92916
▁@ierrejon	-7.92916
▁#ForoCambio11J	-7.93309
▁os	-7.93309
▁unos	-7.93704
▁gran	-7.941
▁Mañana	-7.96104
▁NO	-7.9651
▁tienes	-7.96917
▁Buenos	-7.97326
▁LA	-7.97326
▁:)	-7.97737
▁millones	-7.98149
▁vamos	-7.98149
▁QUE	-7.98563
▁Para	-7.98979
▁primera	-7.98979
▁2015	-7.99396
▁:3	-7.99396
▁Pero	-7.99816
▁hecho	-8.00659
▁ti	-8.00659
▁Rajoy	-8.01084
▁fin	-8.01939
▁mejores	-8.01939
▁programa	-8.02369
▁todas	-8.02369
▁tienen	-8.02801
▁1	-8.03235
▁6	-8.03671
▁buena	-8.04548
▁esa	-8.04548
▁otro	-8.04548
▁país	-8.04548
▁política	-8.04548
▁puedo	-8.04548
▁buen	-8.04989
▁estamos	-8.06775
▁hemos	-8.0768
▁cuenta	-8.08136
▁re	-8.08136
▁mira	-8.08593
▁otra	-8.08593
▁sólo	-8.09053
▁guste	-8.09515
▁creo	-8.09979
▁llega	-8.09979
▁será	-8.09979
▁tenemos	-8.10445
▁#UniDeVerano	-8.11857
▁@Pablo_Iglesias_	-8.11857
▁partido	-8.13289
▁EN	-8.13771
▁favor,muchas	-8.13771
▁toda	-8.13771
▁@chemaalonso	-8.14742
▁Gobierno	-8.15231
▁(	-8.15722
▁dormir	-8.15722
▁lado	-8.15722
▁seguir	-8.15722
▁casa	-8.16712
▁́(	-8.17712
▁podría	-8.18722
▁tanto	-8.18722
▁gobierno	-8.19231
▁hora	-8.19743
▁One	-8.20257
▁The	-8.20774
▁amor	-8.21293
▁Samsung	-8.21815
▁gusta,suscríbete	-8.22868
▁quien	-8.23398
▁@WillyrexYT	-8.23932
▁feliz	-8.23932
▁gustado	-8.23932
▁Windows	-8.24468
▁sí	-8.25007
▁Hay	-8.25549
▁has	-8.25549
▁parece	-8.26642
▁van	-8.26642
▁#Apple	-8.27193
▁igual	-8.27193
▁trabajo	-8.27193
▁alguien	-8.27747
▁juego,	-8.27747
▁Como	-8.28304
▁después	-8.28304
▁euros	-8.28304
▁saber	-8.28864
▁#TrabajarHacerCrecer	-8.29428
▁)	-8.29428
▁@vegetta777	-8.29428
▁Podemos	-8.29428
▁ganas	-8.29428
▁momento	-8.29428
▁móvil	-8.29428
▁fotos	-8.30564
▁Pues	-8.31137
▁asi	-8.31137
▁forma	-8.31137
▁dar	-8.31713
▁foto	-8.31713
▁realidad	-8.31713
▁verdad	-8.32293
▁💬	-8.32293
▁historia	-8.32876
▁nadie	-8.34053
▁Aquí	-8.34646
▁falta	-8.34646
▁hablar	-8.34646
▁bonito	-8.35243
▁problema	-8.35243
▁horas	-8.35844
▁pasa	-8.35844
▁somos	-8.35844
▁tú	-8.35844
▁Grecia	-8.36448
▁d	-8.37056
▁muchas	-8.37056
▁¿Cómo	-8.37056
▁estas	-8.37668
▁#TuitUtil	-8.38283
▁jajajaja	-8.38283
▁vos	-8.38283
▁final	-8.38902
▁pueden	-8.38902
▁&gt;	-8.39525
▁juegos	-8.40152
▁veces	-8.40152
▁youtube	-8.40152
▁futuro	-8.40783
▁pues	-8.40783
▁visto	-8.40783
▁+	-8.41418
▁Nuevo	-8.41418
▁Qué	-8.41418
▁empleo	-8.41418
▁decir	-8.42057
▁nuevos	-8.42057
▁Todo	-8.427
▁sigue	-8.43347
▁casi	-8.43999
▁debe	-8.43999
▁mientras	-8.43999
▁podemos	-8.43999
▁estos	-8.44655
▁queda	-8.44655
▁#Ciencia	-8.45979
▁}:S	-8.46648
▁minutos	-8.47321
▁of	-8.47321
▁poner	-8.47321
▁tras	-8.47321
▁partir	-8.47999
▁estado	-8.48682
▁Estoy	-8.49369
▁Tengo	-8.49369
▁estaba	-8.49369
▁poder	-8.49369
▁tarde	-8.49369
▁unas	-8.49369
▁Europa	-8.50061
▁@pablocasado_	-8.50758
▁datos	-8.50758
▁parte	-8.50758
▁¿Quieres	-8.50758
▁8	-8.5146
▁Feliz	-8.5146
▁estará	-8.5146
▁pasado	-8.5146
▁amo	-8.52167
▁quieres	-8.52167
▁sistema	-8.52167
▁20	-8.53595
▁vas	-8.53595
▁(video)	-8.54317
▁JUEGO	-8.54317
▁seguro	-8.54317
▁sino	-8.54317
▁?	-8.55045
▁Quiero	-8.55045
▁muchos	-8.55045
▁sabe	-8.55045
▁!!	-8.56515
▁hijos	-8.56515
▁sale	-8.57259
▁salir	-8.58008
▁#destacada	-8.58762
▁UAM	-8.58762
▁lindo	-8.58762
▁mujeres	-8.59523
▁viene	-8.59523
▁"No	-8.60289
▁He	-8.60289
▁aunque	-8.60289
▁haber	-8.60289
▁haciendo	-8.60289
▁Al	-8.61061
▁encanta	-8.61061
▁fuera	-8.61061
▁sé	-8.61061
▁tres	-8.61061
▁7	-8.6184
▁paso	-8.6184
▁Mod	-8.62624
▁Pedro	-8.62624
▁ante	-8.62624
▁deja	-8.62624
▁ganar	-8.62624
▁llegar	-8.63414
▁otros	-8.63414
▁siento	-8.63414
▁versión	-8.63414
▁último	-8.63414
▁@PSOE	-8.64211
▁Jajaja	-8.64211
▁Nos	-8.64211
▁Voy	-8.64211
▁domingo	-8.64211
▁durante	-8.64211
▁políticas	-8.64211
▁15	-8.65014
▁cerebro	-8.65014
▁esos	-8.65014
▁Episodio	-8.65824
▁Play	-8.65824
▁Vamos	-8.65824
▁disponible	-8.65824
▁algún	-8.66641
▁cambiar	-8.66641
▁cara	-8.66641
▁Microsoft	-8.67464
▁no,	-8.67464
▁posible	-8.67464
▁"En	-8.68293
▁Soy	-8.68293
▁Xbox	-8.68293
▁dinero	-8.68293
▁tal	-8.68293
▁Esto	-8.6913
▁PS4	-8.6913
▁hago	-8.6913
▁juego.	-8.6913
▁nosotros	-8.6913
▁PARA	-8.69974
▁breve	-8.69974
▁digo	-8.69974
▁dijo	-8.69974
▁estás	-8.69974
▁nuestras	-8.69974
▁ve	-8.69974
▁Espero	-8.70825
▁https://t.co/Y9TLhFa0GW	-8.70825
▁videos,seguro	-8.70825
▁volver	-8.70825
▁9	-8.71684
▁Galaxy	-8.71684
▁Porque	-8.71684
▁elecciones	-8.71684
▁lunes	-8.71684
▁nuestros	-8.71684
▁social	-8.71684
▁hacen	-8.72549
▁lista	-8.72549
▁&amp;	-8.73423
▁0	-8.73423
▁aún	-8.73423
▁comprar	-8.73423
▁derechos	-8.73423
▁haya	-8.73423
▁equipo	-8.74304
▁iOS	-8.74304
▁luego	-8.74304
▁proyecto	-8.74304
▁tipo	-8.74304
▁próximo	-8.75193
▁ME	-8.7609
▁Tu	-8.7609
▁X	-8.7609
▁nuevas	-8.7609
▁pone	-8.7609
▁web	-8.7609
▁Buen	-8.76995
▁XD	-8.76995
▁mayor	-8.76995
▁persona	-8.76995
▁veo	-8.76995
▁Facebook	-8.77908
▁acuerdo	-8.77908
▁ayer	-8.77908
▁#VotaPP	-8.7883
▁(y	-8.7883
▁Twitter	-8.7883
▁música	-8.7883
▁vistazo	-8.7883
▁Hasta	-8.7976
▁LOS	-8.7976
▁Muy	-8.7976
▁amigo	-8.7976
▁españoles	-8.7976
▁mierda	-8.7976
▁queremos	-8.7976
▁GTA	-8.80699
▁I	-8.80699
▁amigos	-8.80699
▁dejar	-8.80699
▁reforma	-8.80699
▁seguirme,	-8.80699
▁in	-8.81647
▁pueblo	-8.81647
▁voto	-8.81647
▁x	-8.81647
▁único	-8.81647
▁Internet	-8.82604
▁mujer	-8.82604
▁seguridad	-8.82604
▁crear	-8.8357
▁cumple	-8.8357
▁pantalla	-8.8357
▁peor	-8.8357
▁problemas	-8.8357
▁punto	-8.8357
▁votar	-8.8357
▁aquí:	-8.84545
▁corrupción	-8.84545
▁ella	-8.84545
▁lugar	-8.84545
▁Eso	-8.85531
▁iPhone	-8.85531
▁!!!	-8.86526
▁Buenas	-8.86526
▁UN	-8.86526
▁ah	-8.86526
▁claro	-8.86526
▁gratis	-8.86526
▁..	-8.87531
▁Os	-8.87531
▁30	-8.88546
▁aplicaciones	-8.88546
▁hombre	-8.88546
▁leída	-8.88546
▁mesa	-8.88546
▁sabes	-8.88546
▁ahí	-8.89572
▁caso	-8.89572
▁cualquier	-8.89572
▁grande	-8.89572
▁noches	-8.89572
▁pasar	-8.89572
▁según	-8.89572
▁@PPopular	-8.90608
▁@bysTaXx	-8.90608
▁TE	-8.90608
▁agua	-8.90608
▁aplicación	-8.90608
▁cosa	-8.90608
▁gustó	-8.90608
▁meses	-8.90608
▁niños	-8.90608
▁pierdas	-8.90608
▁serie	-8.90608
▁verano	-8.90608
▁votada	-8.90608
▁DEL	-8.91655
▁O	-8.91655
▁OS	-8.91655
▁jugando	-8.91655
▁mayoría	-8.91655
▁via	-8.91655
▁viendo	-8.91655
▁Black	-8.92713
▁Todos	-8.92713
▁(:	-8.93783
▁@Dowrow	-8.93783
▁Sigue	-8.93783
▁buenos	-8.93783
▁favor	-8.93783
▁follow	-8.93783
▁galletas	-8.93783
▁sería	-8.93783
▁12	-8.94864
▁:D.	-8.94864
▁comentada	-8.94864
▁importante	-8.94864
▁devuelvo	-8.95957
▁dicen	-8.95957
▁funciona	-8.95957
▁lleva	-8.95957
▁miedo	-8.95957
▁Muchas	-8.97062
▁Puedes	-8.97062
▁grandes	-8.97062
▁jóvenes	-8.97062
▁mano	-8.97062
▁mes	-8.97062
▁nombre	-8.97062
▁pensar	-8.97062
▁quieren	-8.97062
▁recuperación	-8.97062
▁suerte	-8.97062
▁😂	-8.97062
▁"Los	-8.98179
▁Comienza	-8.98179
▁Descubren	-8.98179
▁debería	-8.98179
▁familia	-8.98179
▁:O	-8.99309
▁@pnique	-8.99309
▁^^	-8.99309
▁app	-8.99309
▁beta	-8.99309
▁campaña	-8.99309
▁jajajajaja	-8.99309
▁modo	-8.99309
▁mucha	-8.99309
▁ES	-9.00452
▁cabeza	-9.00452
▁comer	-9.00452
▁dan	-9.00452
▁necesita	-9.00452
▁the	-9.00452
▁Bueno	-9.01608
▁LG	-9.01608
▁Nena,	-9.01608
▁acabo	-9.01608
▁empezar	-9.01608
▁luz	-9.01608
▁madre	-9.01608
▁vaya	-9.01608
▁Le	-9.02778
▁conferencia	-9.02778
▁corazón	-9.02778
▁ellos	-9.02778
▁empiece	-9.02778
▁llegará	-9.02778
▁prensa	-9.02778
▁presenta	-9.02778
▁DIRECTO	-9.03961
▁Nuestro	-9.03961
▁Solo	-9.03961
▁apoyo	-9.03961
▁buenas	-9.03961
▁ciencia	-9.03961
▁había	-9.03961
▁iba	-9.03961
▁viernes	-9.03961
▁vivir	-9.03961
▁♥	-9.03961
▁Estado	-9.05159
▁[ENG]	-9.05159
▁alguna	-9.05159
▁coche	-9.05159
▁dentro	-9.05159
▁empieza	-9.05159
▁habla	-9.05159
▁hagas	-9.05159
▁información	-9.05159
▁leer	-9.05159
▁medio	-9.05159
▁otras	-9.05159
▁siendo	-9.05159
▁tendrá	-9.05159
▁¡No	-9.05159
▁#RdPPodemos	-9.06371
▁13	-9.06371
▁Creo	-9.06371
▁MI	-9.06371
▁Sony	-9.06371
▁cámara	-9.06371
▁electoral	-9.06371
▁genial	-9.06371
▁ley	-9.06371
▁llama	-9.06371
▁quién	-9.06371
▁sociales	-9.06371
▁teléfono	-9.06371
▁24	-9.07598
▁Del	-9.07598
▁Gran	-9.07598
▁Hemos	-9.07598
▁Ops	-9.07598
▁Saludos	-9.07598
▁TV	-9.07598
▁abierto	-9.07598
▁acto	-9.07598
▁dias	-9.07598
▁español	-9.07598
▁estudiar	-9.07598
▁usar	-9.07598
▁virtual	-9.07598
▁Blog	-9.0884
▁derecho	-9.0884
▁manera	-9.0884
▁puesto	-9.0884
▁#FelizMiercoles	-9.10098
▁Bueno,	-9.10098
▁Eleven	-9.10098
▁frente	-9.10098
▁idea	-9.10098
▁permite	-9.10098
▁pide	-9.10098
▁riesgo	-9.10098
▁salud	-9.10098
▁socialistas	-9.10098
▁¿Te	-9.10098
▁@Irene_Montero_	-9.11372
▁c/	-9.11372
▁debate	-9.11372
▁escuchar	-9.11372
▁mejorar	-9.11372
▁mil	-9.11372
▁modelo	-9.11372
▁sueño	-9.11372
▁tomar	-9.11372
▁vale	-9.11372
▁vídeos	-9.11372
▁3D	-9.12662
▁:D.https://t.co/dzilYhTytB	-9.12662
▁Minecraft:	-9.12662
▁Mira	-9.12662
▁Moto	-9.12662
▁Paths	-9.12662
▁curso	-9.12662
▁grupo	-9.12662
▁pronto	-9.12662
▁verme	-9.12662
▁}:O	-9.12662
▁#digoSIvotoPSOE	-9.13969
▁Carmena	-9.13969
▁Siempre	-9.13969
▁espacio	-9.13969
▁hizo	-9.13969
▁pa	-9.13969
▁sigo	-9.13969
▁#APOCALIPSISMINECRAFT4	-9.15294
▁#RutaDelCambio	-9.15294
▁ARK:	-9.15294
▁Ley	-9.15294
▁Sánchez	-9.15294
▁Universidad	-9.15294
▁ciudadanos	-9.15294
▁dado	-9.15294
▁debes	-9.15294
▁paro	-9.15294
▁segundo	-9.15294
▁vi	-9.15294
▁POR	-9.16636
▁Survival	-9.16636
▁entonces	-9.16636
▁haces	-9.16636
▁mala	-9.16636
▁ordenador	-9.16636
▁partidos	-9.16636
▁saludos	-9.16636
▁toca	-9.16636
▁"Hay	-9.17997
▁#WTF	-9.17997
▁@ALevySoler	-9.17997
▁Desde	-9.17997
▁Gameplay	-9.17997
▁Nueva	-9.17997
▁acaba	-9.17997
▁ayuda	-9.17997
▁bueno,	-9.17997
▁hablando	-9.17997
▁ningún	-9.17997
▁rato	-9.17997
▁tambien	-9.17997
▁tenga	-9.17997
▁voz	-9.17997
▁#GobernarParaLaMayoría	-9.19376
▁100	-9.19376
▁;-)	-9.19376
▁CON	-9.19376
▁San	-9.19376
▁acabar	-9.19376
▁aprender	-9.19376
▁chica	-9.19376
▁cine	-9.19376
▁días!	-9.19376
▁habrá	-9.19376
▁info:	-9.19376
▁libro	-9.19376
▁servicios	-9.19376
▁última	-9.19376
▁Dios	-9.20775
▁amiga	-9.20775
▁conmigo?	-9.20775
▁despues	-9.20775
▁imágenes	-9.20775
▁trabajar	-9.20775
▁́)	-9.20775
▁Estamos	-9.22193
▁Hace	-9.22193
▁SE	-9.22193
▁cerca	-9.22193
▁niño	-9.22193
▁plazo	-9.22193
▁servicio	-9.22193
▁tema	-9.22193
▁"	-9.23632
▁#OSX	-9.23632
▁#xelFuturodeEspaña	-9.23632
▁Día	-9.23632
▁PC,	-9.23632
▁Partido	-9.23632
▁V	-9.23632
▁acción	-9.23632
▁bajo	-9.23632
▁chicas	-9.23632
▁crisis	-9.23632
▁cuentas	-9.23632
▁hice	-9.23632
▁ministro	-9.23632
▁pase	-9.23632
▁quienes	-9.23632
▁sacar	-9.23632
▁vacaciones	-9.23632
▁¿Cuál	-9.23632
▁única	-9.23632
▁"Las	-9.25092
▁11	-9.25092
▁=	-9.25092
▁Ni	-9.25092
▁Somos	-9.25092
▁entrevista	-9.25092
▁través	-9.25092
▁twitter	-9.25092
▁uso	-9.25092
▁@ahorapodemos	-9.26573
▁Cada	-9.26573
▁Congreso	-9.26573
▁Conoce	-9.26573
▁Mas	-9.26573
▁anuncia	-9.26573
▁bonita	-9.26573
▁chatear	-9.26573
▁dejo	-9.26573
▁dicho	-9.26573
▁hacia	-9.26573
▁https://t.co/kxWwWbwHhI	-9.26573
▁linda	-9.26573
▁sociedad	-9.26573
▁sos	-9.26573
▁HTC	-9.28077
▁Pablo	-9.28077
▁algunos	-9.28077
▁calidad	-9.28077
▁edición	-9.28077
▁encontrar	-9.28077
▁griego	-9.28077
▁jajaj	-9.28077
▁mayo	-9.28077
▁real	-9.28077
▁resto	-9.28077
▁sTaXx	-9.28077
▁tenía	-9.28077
▁vuelta	-9.28077
▁@RamonEspinar	-9.29604
▁Call	-9.29604
▁camino	-9.29604
▁clases	-9.29604
▁conocer	-9.29604
▁democracia	-9.29604
▁encima	-9.29604
▁esperar	-9.29604
▁http://t.co/WJOlv7DGr2	-9.29604
▁media	-9.29604
▁no?	-9.29604
▁online	-9.29604
▁pena	-9.29604
▁político	-9.29604
▁vemos	-9.29604
▁#Orgullo2015	-9.31154
▁@mdcospedal	-9.31154
▁NUEVO	-9.31154
▁Nunca	-9.31154
▁medidas	-9.31154
▁pregunta	-9.31154
▁propio	-9.31154
▁¡Feliz	-9.31154
▁Evolved	-9.32729
▁busca	-9.32729
▁café	-9.32729
▁calle	-9.32729
▁comienza	-9.32729
▁deberías	-9.32729
▁entrar	-9.32729
▁gracias!	-9.32729
▁hombres	-9.32729
▁instituciones	-9.32729
▁lanza	-9.32729
▁mí	-9.32729
▁preguntas	-9.32729
▁puta	-9.32729
▁sentido	-9.32729
▁usuarios	-9.32729
▁–	-9.32729
▁#VotaPSOE	-9.34329
▁18	-9.34329
▁25	-9.34329
▁LO	-9.34329
▁Lucky	-9.34329
▁S6	-9.34329
▁YouTube	-9.34329
▁aun	-9.34329
▁bastante	-9.34329
▁capaz	-9.34329
▁ciudadanía	-9.34329
▁de...	-9.34329
▁esas	-9.34329
▁esperando	-9.34329
▁estilo	-9.34329
▁extraño	-9.34329
▁imagen	-9.34329
▁móviles	-9.34329
▁presidente	-9.34329
▁primero	-9.34329
▁:*	-9.35955
▁Conferencia	-9.35955
▁Garry`s	-9.35955
▁Jaja	-9.35955
▁Son	-9.35955
▁algun	-9.35955
▁educación	-9.35955
▁haga	-9.35955
▁hijo	-9.35955
▁http://t.co/CwscwXkPCC	-9.35955
▁ido	-9.35955
▁jejej	-9.35955
▁mando	-9.35955
▁maquillar	-9.35955
▁memoria	-9.35955
▁rueda	-9.35955
▁todavía	-9.35955
▁ven	-9.35955
▁"Es	-9.37608
▁2014	-9.37608
▁@AHernandoVera	-9.37608
▁Amazon	-9.37608
▁construir	-9.37608
▁código	-9.37608
▁dólares	-9.37608
▁gana	-9.37608
▁importa	-9.37608
▁juego:	-9.37608
▁lucha	-9.37608
▁padres	-9.37608
▁película	-9.37608
▁red	-9.37608
▁si,	-9.37608
▁tampoco	-9.37608
▁¿Que	-9.37608
▁él	-9.37608
▁#CMin	-9.39289
▁#ColorPSOE	-9.39289
▁#MTVHottest	-9.39289
▁#PSOE24M	-9.39289
▁#ciencia	-9.39289
▁17	-9.39289
▁Star	-9.39289
▁alta	-9.39289
▁creación	-9.39289
▁doble	-9.39289
▁especial	-9.39289
▁fuerza	-9.39289
▁fácil	-9.39289
▁llegado	-9.39289
▁llevar	-9.39289
▁nivel	-9.39289
▁novia	-9.39289
▁primarias	-9.39289
▁segunda	-9.39289
▁trabajando	-9.39289
▁vuelve	-9.39289
▁50	-9.40998
▁:/	-9.40998
▁No,	-9.40998
▁Tenemos	-9.40998
▁clase	-9.40998
▁demasiado	-9.40998
▁echale	-9.40998
▁hola	-9.40998
▁misma	-9.40998
▁pequeño	-9.40998
▁presentación	-9.40998
▁rápido	-9.40998
▁sabemos	-9.40998
▁subir	-9.40998
▁éxito	-9.40998
▁@MayoralRafa	-9.42737
▁Destacado:	-9.42737
▁Nuestra	-9.42737
▁OnePlus	-9.42737
▁Watch	-9.42737
▁caja	-9.42737
▁comida	-9.42737
▁cuanto	-9.42737
▁empresas	-9.42737
▁fuerte	-9.42737
▁habitación	-9.42737
▁internet	-9.42737
▁junto	-9.42737
▁libertad	-9.42737
▁participar	-9.42737
▁perder	-9.42737
▁pierdas!	-9.42737
▁prueba	-9.42737
▁tuit	-9.42737
▁¿Es	-9.42737
▁@feminoacid	-9.44508
▁Cataluña	-9.44508
▁Eres	-9.44508
▁Ese	-9.44508
▁Nexus	-9.44508
▁Xiaomi	-9.44508
▁cie	-9.44508
▁financiación	-9.44508
▁gracia	-9.44508
▁izquierda	-9.44508
▁libros	-9.44508
▁malo	-9.44508
▁próxima	-9.44508
▁redes	-9.44508
▁reunión	-9.44508
▁sean	-9.44508
▁sí,	-9.44508
▁tenido	-9.44508
▁#ColaboraConPodemos	-9.46309
▁&gt;&gt;&gt;	-9.46309
▁AL	-9.46309
▁Internacional	-9.46309
▁José	-9.46309
▁M	-9.46309
▁batería	-9.46309
▁cama	-9.46309
▁culpa	-9.46309
▁cumpleaños	-9.46309
▁económica	-9.46309
▁energía	-9.46309
▁inicio	-9.46309
▁manos	-9.46309
▁objetivo	-9.46309
▁tweet.	-9.46309
▁usted	-9.46309
▁vs	-9.46309
▁¡Buenos	-9.46309
▁:D.https://t.co/AbcdjNAZ6R	-9.48144
▁@JoseManuel_Lop	-9.48144
▁Alguien	-9.48144
▁accesorios	-9.48144
▁ayudar	-9.48144
▁clave	-9.48144
▁cuerpo	-9.48144
▁cultura	-9.48144
▁deben	-9.48144
▁dolor	-9.48144
▁duele	-9.48144
▁listo	-9.48144
▁llegue	-9.48144
▁llevo	-9.48144
▁mitad	-9.48144
▁número	-9.48144
▁pública	-9.48144
▁smartphone	-9.48144
▁videos	-9.48144
▁"Lo	-9.50013
▁#DesayunosTVE	-9.50013
▁@JaviPolo91	-9.50013
▁@Rubiu5	-9.50013
▁China	-9.50013
▁Foro	-9.50013
▁Plutón	-9.50013
▁alcalde	-9.50013
▁aqui	-9.50013
▁baja	-9.50013
▁beneficios	-9.50013
▁buscar	-9.50013
▁cambios	-9.50013
▁crecimiento	-9.50013
▁cual	-9.50013
▁deuda	-9.50013
▁estrena	-9.50013
▁estudios	-9.50013
▁muerte	-9.50013
▁muestra	-9.50013
▁nada,	-9.50013
▁necesito	-9.50013
▁situación	-9.50013
▁verlo	-9.50013
▁#GobernarParaLaMayoria	-9.51918
▁#iOS	-9.51918
▁14	-9.51918
▁40	-9.51918
▁EPISODIO	-9.51918
▁Estas	-9.51918
▁HAPPY	-9.51918
▁Madrid.	-9.51918
▁apps	-9.51918
▁consejos	-9.51918
▁cuatro	-9.51918
▁das	-9.51918
▁ejemplo	-9.51918
▁experiencia	-9.51918
▁gusto	-9.51918
▁julio	-9.51918
▁mensaje	-9.51918
▁oferta	-9.51918
▁perdido	-9.51918
▁precio	-9.51918
▁prácticas	-9.51918
▁recuperar	-9.51918
▁sanidad	-9.51918
▁violencia	-9.51918
▁vivo	-9.51918
▁.Un	-9.5386
▁@mariagv	-9.5386
▁Ayer	-9.5386
▁FAV	-9.5386
▁Jajajaja	-9.5386
▁Nada	-9.5386
▁centro	-9.5386
▁diferencia	-9.5386
▁economía	-9.5386
▁empresa	-9.5386
▁escribir	-9.5386
▁estudiantes	-9.5386
▁fui	-9.5386
▁gobernar	-9.5386
▁hermano	-9.5386
▁jueves	-9.5386
▁justo	-9.5386
▁padre	-9.5386
▁propuesta	-9.5386
▁saben	-9.5386
▁-.-	-9.5584
▁@martinezmaillo	-9.5584
▁Carlos	-9.5584
▁Direction	-9.5584
▁Queremos	-9.5584
▁SI	-9.5584
▁UE	-9.5584
▁WHEELS:	-9.5584
▁abre	-9.5584
▁canción	-9.5584
▁conseguido	-9.5584
▁dale	-9.5584
▁esperamos	-9.5584
▁gustaría	-9.5584
▁momentos	-9.5584
▁pueda	-9.5584
▁relación	-9.5584
▁sábado	-9.5584
▁tecnología	-9.5584
▁últimos	-9.5584
▁#PGE2016	-9.57861
▁@el_pais	-9.57861
▁G	-9.57861
▁Mientras	-9.57861
▁PP,	-9.57861
▁allá	-9.57861
▁bien,	-9.57861
▁canciones	-9.57861
▁color	-9.57861
▁compra	-9.57861
▁descargar	-9.57861
▁estudio	-9.57861
▁excelente	-9.57861
▁gobiernos	-9.57861
▁jajajaj	-9.57861
▁ninguna	-9.57861
▁noticia	-9.57861
▁pedir	-9.57861
▁saga	-9.57861
▁saludo	-9.57861
▁terminar	-9.57861
▁#DIMINUTOS2	-9.59923
▁#digoSÍvotoPSOE	-9.59923
▁@JavierMaroto	-9.59923
▁@gerigrinerd	-9.59923
▁Aunque	-9.59923
▁JAJAJA	-9.59923
▁Juegos	-9.59923
▁Programa	-9.59923
▁Store	-9.59923
▁VEGETTA	-9.59923
▁WhatsApp	-9.59923
▁además	-9.59923
▁carga	-9.59923
▁contigo	-9.59923
▁encuentro	-9.59923
▁esfuerzo	-9.59923
▁grabar	-9.59923
▁gustan	-9.59923
▁llegan	-9.59923
▁no.	-9.59923
▁palabras	-9.59923
▁perro	-9.59923
▁quedo	-9.59923
▁tengas	-9.59923
▁trata	-9.59923
▁viaje	-9.59923
▁¿Y	-9.59923
▁16	-9.62028
▁Después	-9.62028
▁LAS	-9.62028
▁entiendo	-9.62028
▁evitar	-9.62028
▁ideas	-9.62028
▁loco	-9.62028
▁ojos	-9.62028
▁palabra	-9.62028
▁películas	-9.62028
▁pongo	-9.62028
▁puntos	-9.62028
▁xd	-9.62028
▁}:D	-9.62028
▁Dos	-9.64179
▁Fue	-9.64179
▁Online	-9.64179
▁artículo	-9.64179
▁carrera	-9.64179
▁ciudad	-9.64179
▁diga	-9.64179
▁elegido	-9.64179
▁entrega	-9.64179
▁estrategia	-9.64179
▁finde	-9.64179
▁igualdad	-9.64179
▁ofrece	-9.64179
▁pacto	-9.64179
▁papel	-9.64179
▁proceso	-9.64179
▁proyectos	-9.64179
▁público	-9.64179
▁quedan	-9.64179
▁razones	-9.64179
▁regalo	-9.64179
▁serio	-9.64179
▁sitio	-9.64179
▁"Si	-9.66376
▁#Latch	-9.66376
▁--&gt;	-9.66376
▁@ccifuentes	-9.66376
▁Acabo	-9.66376
▁App	-9.66376
▁Chrome	-9.66376
▁España.	-9.66376
▁Estos	-9.66376
▁Justin	-9.66376
▁Popular	-9.66376
▁Sin	-9.66376
▁abrir	-9.66376
▁cáncer	-9.66376
▁doy	-9.66376
▁en:	-9.66376
▁espera	-9.66376
▁esté	-9.66376
▁fecha	-9.66376
▁intervención	-9.66376
▁libre	-9.66376
▁mama	-9.66376
▁marca	-9.66376
▁onda	-9.66376
▁pelo	-9.66376
▁profesor	-9.66376
▁ps4	-9.66376
▁puto	-9.66376
▁sexo	-9.66376
▁sirve	-9.66376
▁sola	-9.66376
▁super	-9.66376
▁venir	-9.66376
▁.@marianorajoy	-9.68624
▁2016	-9.68624
▁@pascualsergio	-9.68624
▁Duty:	-9.68624
▁España,	-9.68624
▁Motorola	-9.68624
▁MÁS	-9.68624
▁PC.	-9.68624
▁Tierra	-9.68624
▁YA	-9.68624
▁base	-9.68624
▁completo	-9.68624
▁conseguir	-9.68624
▁dónde	-9.68624
▁económico	-9.68624
▁error	-9.68624
▁física	-9.68624
▁gama	-9.68624
▁gestión	-9.68624
▁https://t.co/YFVO4gCgij	-9.68624
▁humor	-9.68624
▁impuestos	-9.68624
▁juntos	-9.68624
▁llevan	-9.68624
▁pobreza	-9.68624
▁programas	-9.68624
▁quede	-9.68624
▁septiembre	-9.68624
▁serán	-9.68624
▁sol	-9.68624
▁trabajadores	-9.68624
▁ustedes	-9.68624
▁vida.	-9.68624
▁.@pablocasado_	-9.70923
▁2:	-9.70923
▁4K	-9.70923
▁Ayuntamiento	-9.70923
▁Esa	-9.70923
▁Felicidades	-9.70923
▁Mejor	-9.70923
▁Nacional	-9.70923
▁New	-9.70923
▁Note	-9.70923
▁Quien	-9.70923
▁SORTEO	-9.70923
▁cierto	-9.70923
▁deje	-9.70923
▁deporte	-9.70923
▁entra	-9.70923
▁eran	-9.70923
▁hermoso	-9.70923
▁normal	-9.70923
▁oportunidad	-9.70923
▁par	-9.70923
▁pensando	-9.70923
▁playa	-9.70923
▁qe	-9.70923
▁reformas	-9.70923
▁resultados	-9.70923
▁risa	-9.70923
▁sera	-9.70923
▁señor	-9.70923
▁sonrisa	-9.70923
▁tanta	-9.70923
▁tenes	-9.70923
▁tengan	-9.70923
▁toma	-9.70923
▁&gt;:D	-9.73276
▁/	-9.73276
▁@cesarluena	-9.73276
▁@derecho_uam	-9.73276
▁@pbustinduy	-9.73276
▁Big	-9.73276
▁Consejo	-9.73276
▁Curso	-9.73276
▁EEUU	-9.73276
▁GAMER,	-9.73276
▁GATO	-9.73276
▁Juan	-9.73276
▁Latch	-9.73276
▁Mario	-9.73276
▁Mejorando	-9.73276
▁Mis	-9.73276
▁alternativa	-9.73276
▁anda	-9.73276
▁chicos	-9.73276
▁coches	-9.73276
▁cuesta	-9.73276
▁dando	-9.73276
▁diciendo	-9.73276
▁española	-9.73276
▁gato	-9.73276
▁inteligente	-9.73276
▁joven	-9.73276
▁mensajes	-9.73276
▁pc,	-9.73276
▁peli	-9.73276
▁podrá	-9.73276
▁poquito	-9.73276
▁primeros	-9.73276
▁propuestas	-9.73276
▁realmente	-9.73276
▁recibe	-9.73276
▁recortes	-9.73276
▁recuerda	-9.73276
▁reloj	-9.73276
▁triste	-9.73276
▁:D!	-9.75685
▁@FyL_UAM	-9.75685
▁Nintendo	-9.75685
▁PC!	-9.75685
▁PlayStation	-9.75685
▁Sí,	-9.75685
▁UAM!	-9.75685
▁abrazo	-9.75685
▁afecta	-9.75685
▁ahi	-9.75685
▁dios	-9.75685
▁disco	-9.75685
▁disfrutar	-9.75685
▁ejercicio	-9.75685
▁evento	-9.75685
▁fiesta	-9.75685
▁largo	-9.75685
▁marcha	-9.75685
▁mejora	-9.75685
▁mundial	-9.75685
▁necesitas	-9.75685
▁odio	-9.75685
▁quieras	-9.75685
▁temporada	-9.75685
▁ves	-9.75685
▁votado	-9.75685
▁21	-9.78155
▁@OPEUAM	-9.78155
▁@UAM_Gazette	-9.78155
▁Ahí	-9.78155
▁Andalucía	-9.78155
▁D:	-9.78155
▁Ha	-9.78155
▁John	-9.78155
▁Luis	-9.78155
▁Monster	-9.78155
▁ONLINE	-9.78155
▁Rato	-9.78155
▁Semana	-9.78155
▁UNA	-9.78155
▁Wear	-9.78155
▁aumentar	-9.78155
▁banda	-9.78155
▁cae	-9.78155
▁control	-9.78155
▁correo	-9.78155
▁diciembre	-9.78155
▁difícil	-9.78155
▁efecto	-9.78155
▁estaré	-9.78155
▁existe	-9.78155
▁favorito	-9.78155
▁fiscal	-9.78155
▁ganado	-9.78155
▁hacerlo	-9.78155
▁hará	-9.78155
▁hoy,	-9.78155
▁http://t.co/MVt7JTx7fY	-9.78155
▁ilusión	-9.78155
▁martes	-9.78155
▁medios	-9.78155
▁nota	-9.78155
▁pagar	-9.78155
▁podrían	-9.78155
▁recuerdo	-9.78155
▁segundos	-9.78155
▁solidaridad	-9.78155
▁verte	-9.78155
▁vienen	-9.78155
▁#FelizLunes	-9.80686
▁*-*	-9.80686
▁@c_floriano	-9.80686
▁Blocks	-9.80686
▁Like	-9.80686
▁NASA	-9.80686
▁Plus	-9.80686
▁Super	-9.80686
▁También	-9.80686
▁USB	-9.80686
▁bajar	-9.80686
▁caer	-9.80686
▁defender	-9.80686
▁deseo	-9.80686
▁euro	-9.80686
▁explica	-9.80686
▁fan	-9.80686
▁felicidad	-9.80686
▁http://t.co/08eZ0fzjAi	-9.80686
▁juega	-9.80686
▁mola	-9.80686
▁necesario	-9.80686
▁paga	-9.80686
▁pocos	-9.80686
▁podrás	-9.80686
▁políticos	-9.80686
▁razón	-9.80686
▁rol	-9.80686
▁sesión	-9.80686
▁teléfonos	-9.80686
▁tratar	-9.80686
▁víctimas	-9.80686
▁#InvertirEnPersonas	-9.83284
▁26	-9.83284
▁@E1Am1g01nf0rma1	-9.83284
▁@ElevenPaths	-9.83284
▁Bieber	-9.83284
▁Ciudadanos	-9.83284
▁Epic	-9.83284
▁Maps	-9.83284
▁PP.	-9.83284
▁Parece	-9.83284
▁Real	-9.83284
▁WILLYREX:	-9.83284
▁algunas	-9.83284
▁bandera	-9.83284
▁calor	-9.83284
▁cargo	-9.83284
▁clausura	-9.83284
▁compromiso	-9.83284
▁crea	-9.83284
▁demás	-9.83284
▁derecha	-9.83284
▁divertido	-9.83284
▁edad	-9.83284
▁encuentra	-9.83284
▁instalar	-9.83284
▁jeje	-9.83284
▁lleno	-9.83284
▁mirar	-9.83284
▁morir	-9.83284
▁noticias	-9.83284
▁novio	-9.83284
▁oficial	-9.83284
▁oficiales	-9.83284
▁países	-9.83284
▁perfecta	-9.83284
▁reducir	-9.83284
▁seguirme	-9.83284
▁smartphones	-9.83284
▁varios	-9.83284
▁vieja	-9.83284
▁visita	-9.83284
▁voluntad	-9.83284
▁vuelto	-9.83284
▁¿Quién	-9.83284
▁#DebateTM	-9.85951
▁#EnPodemosTúDecides	-9.85951
▁:v	-9.85951
▁@Astrocosas	-9.85951
▁Barcelona	-9.85951
▁Fernández	-9.85951
▁GRACIAS	-9.85951
▁Javier	-9.85951
▁Sol	-9.85951
▁Sólo	-9.85951
▁ataque	-9.85951
▁años,	-9.85951
▁concurso	-9.85951
▁culo	-9.85951
▁detalles	-9.85951
▁diseño	-9.85951
▁entrada	-9.85951
▁escuela	-9.85951
▁esperanza	-9.85951
▁fondo	-9.85951
▁gente"	-9.85951
▁gente.	-9.85951
▁hacemos	-9.85951
▁iPad	-9.85951
▁imposible	-9.85951
▁informática	-9.85951
▁piensa	-9.85951
▁pinta	-9.85951
▁plan	-9.85951
▁podido	-9.85951
▁puerta	-9.85951
▁robot	-9.85951
▁súper	-9.85951
▁tiempos	-9.85951
▁tweet	-9.85951
▁usa	-9.85951
▁¿A	-9.85951
▁"Hemos	-9.88691
▁#EnSevillaPodemos	-9.88691
▁22	-9.88691
▁@0xWORD	-9.88691
▁@garnachod	-9.88691
▁Ah	-9.88691
▁Bien	-9.88691
▁Domingo	-9.88691
▁Está	-9.88691
▁Gracias!	-9.88691
▁Lollipop	-9.88691
▁Premio	-9.88691
▁SOY	-9.88691
▁VIDEO	-9.88691
▁Va	-9.88691
▁Whatsapp	-9.88691
▁acceso	-9.88691
▁ando	-9.88691
▁candidato	-9.88691
▁chocolate	-9.88691
▁convierte	-9.88691
▁darle	-9.88691
▁desarrollo	-9.88691
▁elegir	-9.88691
▁estan	-9.88691
▁hermosa	-9.88691
▁incluso	-9.88691
▁info	-9.88691
▁interior	-9.88691
▁leche	-9.88691
▁mente	-9.88691
▁pareja	-9.88691
▁participación	-9.88691
▁podéis	-9.88691
▁presentan	-9.88691
▁públicos	-9.88691
▁respuesta	-9.88691
▁sangre	-9.88691
▁seguidores	-9.88691
▁semanas	-9.88691
▁solar	-9.88691
▁suena	-9.88691
▁tarea	-9.88691
▁volverá	-9.88691
▁votos	-9.88691
▁¿qué	-9.88691
▁"Queremos	-9.91508
▁#RT	-9.91508
▁#cine	-9.91508
▁.@marianorajoy:	-9.91508
▁19	-9.91508
▁@IsabelValdesque	-9.91508
▁@TownGamePlay	-9.91508
▁ABIERTO	-9.91508
▁Aguirre	-9.91508
▁Antonio	-9.91508
▁Ashley	-9.91508
▁Autónoma	-9.91508
▁Comunidad	-9.91508
▁Cosas	-9.91508
▁HOY	-9.91508
▁Hola,	-9.91508
▁Les	-9.91508
▁MUY	-9.91508
▁Parlamento	-9.91508
▁Púnica	-9.91508
▁Q	-9.91508
▁QUIERAS	-9.91508
▁Toda	-9.91508
▁Tronos	-9.91508
▁actividades	-9.91508
▁ayuntamientos	-9.91508
▁azul	-9.91508
▁compañeros	-9.91508
▁condiciones	-9.91508
▁conexión	-9.91508
▁confianza	-9.91508
▁di	-9.91508
▁dije	-9.91508
▁dio	-9.91508
▁gratuito	-9.91508
▁hacerte	-9.91508
▁k	-9.91508
▁laboral	-9.91508
▁llego	-9.91508
▁miles	-9.91508
▁negro	-9.91508
▁origen	-9.91508
▁quiera	-9.91508
▁regreso	-9.91508
▁responsabilidad	-9.91508
▁salga	-9.91508
▁seas	-9.91508
▁significa	-9.91508
▁socialista	-9.91508
▁velocidad	-9.91508
▁venta	-9.91508
▁vida,	-9.91508
▁¿Aún	-9.91508
▁#Madrid	-9.94407
▁#UAM,	-9.94407
▁#empleo	-9.94407
▁#juegos	-9.94407
▁#tecnología	-9.94407
▁360	-9.94407
▁:D,	-9.94407
▁Algunos	-9.94407
▁Consulta	-9.94407
▁Díaz	-9.94407
▁Huawei	-9.94407
▁MEJOR	-9.94407
▁Nosotros	-9.94407
▁Otra	-9.94407
▁Primera	-9.94407
▁Race	-9.94407
▁Recuerda	-9.94407
▁Síguelo	-9.94407
▁Tsipras	-9.94407
▁Xperia	-9.94407
▁actualización	-9.94407
▁adelante	-9.94407
▁agosto	-9.94407
▁aire	-9.94407
▁and	-9.94407
▁aparece	-9.94407
▁comunidad	-9.94407
▁concierto	-9.94407
▁conmigo	-9.94407
▁cree	-9.94407
▁digital	-9.94407
▁día.	-9.94407
▁enviar	-9.94407
▁errores	-9.94407
▁friki	-9.94407
▁hubiera	-9.94407
▁interesa	-9.94407
▁lanzamiento	-9.94407
▁logro	-9.94407
▁matar	-9.94407
▁mundo,	-9.94407
▁números	-9.94407
▁ok	-9.94407
▁original	-9.94407
▁pasan	-9.94407
▁pasando	-9.94407
▁propia	-9.94407
▁quería	-9.94407
▁reproducción	-9.94407
▁resultado	-9.94407
▁salido	-9.94407
▁seguimos	-9.94407
▁sorteo	-9.94407
▁teclado	-9.94407
▁tenéis	-9.94407
▁universidad	-9.94407
▁usando	-9.94407
▁viejo	-9.94407
▁vista	-9.94407
▁¡He	-9.94407
▁"A	-9.97392
▁"Tenemos	-9.97392
▁#ForoPorElCambio	-9.97392
▁#malware	-9.97392
▁2015:	-9.97392
▁28	-9.97392
▁3:	-9.97392
▁@3djuegos	-9.97392
▁@HectordeLama	-9.97392
▁@trolerotutos	-9.97392
▁Ciencia	-9.97392
▁Final	-9.97392
▁Iglesias	-9.97392
▁Llega	-9.97392
▁Lunes	-9.97392
▁Project	-9.97392
▁Seguimos	-9.97392
▁Ser	-9.97392
▁Temporada	-9.97392
▁Tesla	-9.97392
▁Vía	-9.97392
▁alcohol	-9.97392
▁análisis	-9.97392
▁becas	-9.97392
▁bien.	-9.97392
▁blog	-9.97392
▁cambio.	-9.97392
▁cierre	-9.97392
▁colegio	-9.97392
▁combatir	-9.97392
▁común	-9.97392
▁contacto	-9.97392
▁dejes	-9.97392
▁duro	-9.97392
▁día,	-9.97392
▁eh	-9.97392
▁entender	-9.97392
▁gratuita	-9.97392
▁género	-9.97392
▁intento	-9.97392
▁invito	-9.97392
▁ja	-9.97392
▁línea	-9.97392
▁mayores	-9.97392
▁niña	-9.97392
▁play	-9.97392
▁popular	-9.97392
▁prepara	-9.97392
▁recomiendo	-9.97392
▁recordar	-9.97392
▁reglas	-9.97392
▁récord	-9.97392
▁siguiente	-9.97392
▁solución	-9.97392
▁todos!	-9.97392
▁utilizar	-9.97392
▁verla	-9.97392
▁viste	-9.97392
▁¡Enhorabuena	-9.97392
▁"Con	-10.0047
▁"Estamos	-10.0047
▁100%	-10.0047
▁@CBescansa	-10.0047
▁Algo	-10.0047
▁Confirmado:	-10.0047
▁Constitución	-10.0047
▁Convocatoria	-10.0047
▁GORDO).	-10.0047
▁Hi	-10.0047
▁II	-10.0047
▁Julio	-10.0047
▁Murder	-10.0047
▁Participa	-10.0047
▁Primer	-10.0047
▁Race:	-10.0047
▁SMITE	-10.0047
▁Según	-10.0047
▁Tras	-10.0047
▁Wars	-10.0047
▁Zapata	-10.0047
▁acerca	-10.0047
▁apuesta	-10.0047
▁broma	-10.0047
▁capítulo	-10.0047
▁causa	-10.0047
▁ciclo	-10.0047
▁ciudades	-10.0047
▁comenzar	-10.0047
▁conozco	-10.0047
▁decisiones	-10.0047
▁discurso	-10.0047
▁formas	-10.0047
▁hambre	-10.0047
▁haré	-10.0047
▁horas.	-10.0047
▁i	-10.0047
▁investigación	-10.0047
▁lanzará	-10.0047
▁llaman	-10.0047
▁mamá	-10.0047
▁mantener	-10.0047
▁musica	-10.0047
▁ojo	-10.0047
▁placer	-10.0047
▁principio	-10.0047
▁probar	-10.0047
▁quedar	-10.0047
▁salen	-10.0047
▁siete	-10.0047
▁siga	-10.0047
▁siguen	-10.0047
▁sube	-10.0047
▁to	-10.0047
▁universo	-10.0047
▁vuelo	-10.0047
▁¡Ya	-10.0047
▁#BibliotecaUAM	-10.0364
▁#OrgulloDeLaGente	-10.0364
▁#UnasPrimariasParaGanar	-10.0364
▁#estudiantes	-10.0364
▁#internet	-10.0364
▁....	-10.0364
▁1.	-10.0364
▁2011	-10.0364
▁23	-10.0364
▁??	-10.0364
▁@equipoGabilondo	-10.0364
▁BLACK	-10.0364
▁BlackBerry	-10.0364
▁Buena	-10.0364
▁Entrevista	-10.0364
▁Esperanza	-10.0364
▁Menos	-10.0364
▁Orgullo	-10.0364
▁Política	-10.0364
▁Si,	-10.0364
▁Tienes	-10.0364
▁Tres	-10.0364
▁Tú	-10.0364
▁Viendo	-10.0364
▁Witcher	-10.0364
▁accidente	-10.0364
▁apenas	-10.0364
▁aprueba	-10.0364
▁avión	-10.0364
▁bolsa	-10.0364
▁campo	-10.0364
▁celular	-10.0364
▁charla	-10.0364
▁chino	-10.0364
▁cita	-10.0364
▁consulta	-10.0364
▁corta	-10.0364
▁creador	-10.0364
▁creadores	-10.0364
▁dormido	-10.0364
▁duda	-10.0364
▁efectos	-10.0364
▁enero	-10.0364
▁examen	-10.0364
▁familias	-10.0364
▁formación	-10.0364
▁hoy.	-10.0364
▁importancia	-10.0364
▁intentar	-10.0364
▁internacional	-10.0364
▁jamás	-10.0364
▁legislatura	-10.0364
▁mapas	-10.0364
▁mercado	-10.0364
▁más.	-10.0364
▁mínimo	-10.0364
▁nada.	-10.0364
▁novela	-10.0364
▁oportunidades	-10.0364
▁partes	-10.0364
▁pizza	-10.0364
▁portavoz	-10.0364
▁protección	-10.0364
▁seria	-10.0364
▁solicitar	-10.0364
▁tarjeta	-10.0364
▁tenia	-10.0364
▁todo,	-10.0364
▁tuve	-10.0364
▁tío	-10.0364
▁}:P	-10.0364
▁#SesióndeControl	-10.0692
▁#iPhone	-10.0692
▁-&gt;	-10.0692
▁.@sanchezcastejon	-10.0692
▁:D:	-10.0692
▁@LuzuVlogs	-10.0692
▁Apple:	-10.0692
▁E	-10.0692
▁Edge	-10.0692
▁Igual	-10.0692
▁Lenovo	-10.0692
▁Nokia	-10.0692
▁OPS	-10.0692
▁Sorteo	-10.0692
▁Tener	-10.0692
▁Tiene	-10.0692
▁Uff	-10.0692
▁aburrido	-10.0692
▁an	-10.0692
▁atención	-10.0692
▁años.	-10.0692
▁capacidad	-10.0692
▁cinco	-10.0692
▁comience	-10.0692
▁contratos	-10.0692
▁debemos	-10.0692
▁den	-10.0692
▁detrás	-10.0692
▁dibujo	-10.0692
▁ello	-10.0692
▁encontrado	-10.0692
▁enfermedad	-10.0692
▁escuchando	-10.0692
▁fueron	-10.0692
▁general	-10.0692
▁guapa	-10.0692
▁homenaje	-10.0692
▁http://t.co/OP525tjwDE	-10.0692
▁informático	-10.0692
▁is	-10.0692
▁jejeje	-10.0692
▁juego?	-10.0692
▁junio	-10.0692
▁maquillaje	-10.0692
▁millón	-10.0692
▁ocurre	-10.0692
▁opción	-10.0692
▁pequeña	-10.0692
▁piel	-10.0692
▁pienso	-10.0692
▁plaza	-10.0692
▁policía	-10.0692
▁portátil	-10.0692
▁premio	-10.0692
▁que,	-10.0692
▁quedado	-10.0692
▁simple	-10.0692
▁solicitud	-10.0692
▁streaming	-10.0692
